memory_initialization_radix=2;
memory_initialization_vector=001100010
111100110
000010111
100000000
100000000
111101111
000000110
000111011
111110100
111111100
111101010
001010000
000000111
000111101
100000000
001000001
100000000
111110010
111111110
001011000
000111101
111000100
001100101
100000011
000101111
000000110
010001000
000111010
111101000
001101010
000000001
111101100
001100111
100000000
111111001
111111001
000010000
111101110
000111100
001101011
001011000
001000001
111100100
000001010
001101000
001101100
111100111
111011010
111011101
000001011
100000000
111110010
111111010
111100100
111111111
000011101
111101110
100000000
111110110
100000010
000101001
000011111
111010110
111111100
001010000
111111001
111110010
111110100
100000000
010011110
100000000
001001110
111110010
111100111
111101100
111110101
100000000
000000111
010000100
000000001
111101111
100000000
000100100
111110011
111111010
001100110
100000000
100000000
111110110
111111100
111100011
001010000
111110101
010010010
001100110
000001000
100000000
100000000
111100111
100000000
100000000
010010111
000010011
000101111
111101001
010101000
111111000
000011101
100000000
100000000
111100000
100000011
100000000
000010111
000000000
111110110
001000010
111101001
001011001
000000101
100000000
111010111
001111101
000010011
001111100
001000110
001111000
000000101
000010011
111111011
100000000
100000000
100000000
001000010
001011100
111111110
010011010
010100000
000111101
100000101
000000110
101100100
000000010
000010100
010100000
111111111
000001001
110001000
000010111
000000000
111111111
111110110
000010001
000001111
000000000
000101111
100000000
000100111
010101101
001100001
000000011
000011001
100000000
001111001
000000010
100000000
101111111
000100010
110111000
000110110
111111000
111011101
111111000
000011110
001001010
000100101
111111001
010001111
000111001
110111101
001101111
001111110
100000000
000001111
000100111
001110010
000001111
000001000
000110001
000001000
000111011
000010001
111100010
001110001
110101110
100000000
111011011
000001101
110100101
000111100
100000000
111111110
111010100
111100101
010100011
100000000
000100101
100000000
001100000
001111011
100000000
000011001
111111011
000111011
100000000
010100001
000010010
010100101
111100010
000011011
011010000
000000101
010000011
111111011
010100110
111110011
001110001
110110100
111111011
110101100
100000000
111001110
011110111
011100110
000001111
111110100
001011100
001000101
100000000
111101000
111011110
111100101
010110010
100000000
100000000
010100011
100000000
001000000
110101110
000000011
010111100
000001000
001100001
111111110
001001101
000010110
000101010
111111110
000001000
100000000
000111011
111101000
000000010
000001111
110111001
111100111
111101110
100000000
000011000
001101100
010000110
100000000
111101110
100000000
001000010
010010111
111110011
000000000
110000101
010001111
111001110
001111110
100000000
111101000
100000000
000101101
001101101
000000101
111111101
111010011
000001111
001000010
000000000
000000000
000000000
000000000
000000000
000000000
000000000
000000000
000000000
000000000
000000000
000000000
111101100
000000010
111010111
111110101
100000000
000000110
001001111
100000000
010000011
111110100
111001010
100000000
100000000
111011101
001100110
100000000
111110000
100000000
100000011
001001111
111100100
111000010
100000000
100000000
100000000
100000000
100000000
100000000
111110010
111011000
110111010
001100101
111010101
010101010
100000000
100000000
100000000
100000000
111100100
111001000
111010010
100000000
111011110
111101111
111001111
111011110
111010101
111011100
111100001
100000000
001011001
000001101
000000001
100000000
111110100
001110011
111101100
001101010
001110100
100000000
000000001
111110110
000111101
111100010
111111110
100000000
100000000
010100001
001001000
100000000
001001000
111110011
111110010
111110000
001010010
111110010
001101011
010100111
100000000
100000000
100000000
000110110
111011101
100000000
001011000
111000000
100000000
100000000
001010000
100000000
001100101
100000000
111110101
100000000
100000000
100000000
000010100
001011110
000101110
000000001
000010000
100000000
100000000
100000000
111101110
100000000
000100000
100000000
100000000
100000000
000011000
100000000
010010001
111100111
111111111
100000000
111110110
100000000
111000011
100000000
111110010
001100001
100000000
100000000
111111011
100000000
100000000
100000000
111110100
111110101
001000011
001001100
010100100
100000000
100000000
010000110
100000000
100000000
100000101
100000100
000001100
111110111
000000010
111101000
110011100
111111111
111101000
110111101
000001010
000001110
111101000
000001010
000101010
001001101
000011100
111101100
100000000
001101001
111101111
111111100
000011100
000111000
100000000
111101111
001101101
111110001
000101110
000110111
001000101
100000000
000110000
001110011
001101010
000001010
111111111
001000111
001010000
000111100
000110101
111011100
111110011
111011110
111110101
111111111
111111100
111111001
111101011
000100100
001001100
001111111
111110010
111101000
001001101
111100101
010000010
100000000
000000000
100000000
001110001
111111111
111111100
001000011
010011001
001101010
111001011
000010101
000110111
001101100
000000100
111101111
000000001
001011000
000101101
001100011
111101110
110101111
111101111
111100011
000101101
111111100
111100100
001000000
111001011
000000011
000011011
000111001
111101010
010100001
000001011
001110110
010001111
010001000
111011010
111100001
100000000
111110001
111100001
111101010
000011000
001101100
111101010
001011110
111101011
010100100
100000000
111100011
001011111
100000000
001110110
000011111
111010011
011101110
111100111
000010101
000000011
111100001
010011010
010001101
001010111
100000000
000000011
001101001
000011111
000100111
001111000
000101110
100000000
001111101
111111010
111111101
000010110
100000000
111101010
001110001
111111010
111010101
111110101
001101101
000101011
111100111
001011100
111101111
100000000
111111001
001101101
111101000
111110001
010011010
000001101
010000101
111101100
000101010
000000000
000000000
000000000
000000000
000000000
000000000
000000000
000000000
000000000
000000000
000000000
000000000
111111101
111001110
111000010
000001000
111101000
010011100
001001101
010110010
111111001
001001000
000001100
001111110
001011001
111011110
000010001
000001101
111100111
111011011
001110001
111110110
000101010
111011001
000110100
111111001
000000011
111111001
000001111
001001101
111111110
000100111
111101100
111101010
000000000
000010100
001001000
000000011
001100000
001011001
001000010
001000010
000001100
000110010
001001000
001110001
001000111
001011011
000110110
111100000
000011110
000010010
111100101
100000000
111011101
111000111
000000011
111110001
001101000
111100101
000011101
100000000
111110001
001110001
111011101
000011101
010001010
000101100
111100111
000001101
111101100
111100101
111110110
001101010
001100101
111100011
111011101
010010100
111101000
111101111
000000010
001001010
001100101
111011001
000000101
001111011
000001000
001000101
111111000
111101111
111101100
001010010
111011000
111111001
000111001
000001101
111111110
010001111
111010001
100000000
111011001
111111001
000001111
000100101
001110001
001001010
111110110
111111001
111111011
111110100
100000000
111110011
001010110
111111101
111111001
111111101
111111000
001101010
000001100
000110001
001011100
010100001
111101100
111001100
000001000
001010001
000001000
111010001
001101100
001010110
010011011
111111011
111111000
000000011
100000000
001101100
001111001
000001000
001101000
001011100
010010110
010100110
000000000
000000000
000000000
000000000
000000000
000000000
000000000
000000000
000000000
000000000
000000000
000000000
111100000
111111000
000011111
000101011
000111011
111101110
000001010
001100011
000000000
000010110
001000011
001001110
111101011
001011111
000110101
000010010
000101001
001011000
000011111
000101110
000000001
111011101
111111000
111011110
111101000
000001111
111101010
001101111
100000000
001010101
001000000
111100011
111100100
100000000
000111100
000011011
111101111
111110010
001010100
000001110
000011000
111001100
000110010
001000011
001011010
000010110
001101000
111100001
100000000
000001010
001001110
000110000
111001001
000000111
111010101
000001011
000110000
001101000
100000000
000000111
000001000
111101011
001000000
111010010
010110101
000100010
111111101
100000000
000110101
001001010
110100001
111111000
000010100
111110101
111101111
001011000
111110001
000010101
000100110
000111111
100000000
100000000
111111001
000010101
000011000
010001101
111110010
111111101
000110101
000100011
111100011
100000000
000011111
000101011
001101101
001110011
000011111
000000100
111001111
100000000
010010000
000110000
000111011
111101010
111111000
111100001
111111000
000010110
111101010
111111001
000010110
000010101
000110100
000101010
000001011
000001011
111111100
000001010
000110000
001011110
000001010
100000000
100000000
111011001
111111101
111101110
000011001
111111111
010001101
000101110
111110001
111101111
000010001
001010101
000010010
111011100
000010100
001000011
011000111
111101011
011111111
011111111
000000000
000000000
000000000
000000000
000000000
000000000
000000000
000000000
000000000
011111111
111111001
000001000
111100010
001010110
000110101
111111111
000101000
000000000
111101101
010001111
001111001
001101000
111100011
000110111
000011100
111111001
001000001
000010000
111111000
100000000
000000001
001101000
000110100
000001010
000000111
000001010
111110100
000000100
111011011
000010110
000011010
111101010
010001010
100000100
001011000
111110010
000111100
001011000
111111100
001000010
000010110
001000110
001100111
001000011
001000100
001010100
001101011
001011001
010010101
000110000
111101010
000001101
001010100
000001100
111111011
000101010
010100010
111100000
111101101
000000100
111101001
001010000
111110100
010101000
000101001
000010011
001000011
000010110
000001110
100000000
000111010
000001010
001010110
000011000
111101010
111101110
111111011
100000000
111110101
111111100
001110100
111100111
000110000
001101010
111110010
001010010
100000000
000011010
100000000
111110100
111101010
111111000
010110110
111110110
111101111
001110000
111110000
111101111
000000010
111111000
000001011
111111010
001011011
001001110
000001100
111100100
000010011
100000000
100000011
000011100
111100100
100000010
111100110
001011110
000011111
000001011
100000000
000101001
001010010
000000111
010000010
111010111
111101000
000000010
000000110
111011000
000010100
001110000
001100101
111111111
000001010
111111001
100000000
111111110
001101000
000001010
000001100
000010001
000001101
100000011
000000000
000000000
000000000
000000000
000000000
000000000
000000000
000000000
000000000
000000000
000000000
000000000
001101100
001000111
111101110
000100000
000001110
000010110
111101010
000000000
000000001
111101010
000011111
111101011
000101101
001110000
001110000
000001000
111001111
001101100
111100101
111110011
000011011
001100011
000101101
000110100
000000111
111000101
111110010
111001001
010001001
111010111
010111010
000110000
001000111
000101001
001110001
001111010
000100100
000101101
000011000
000001011
111101000
010100100
111101100
000111111
100000000
111111100
111001001
001011000
000000011
111101110
111110110
000100110
010101110
010000010
001100101
111100111
000000100
111111100
010001011
111101100
100000000
000101001
010110010
010001000
000001111
111100011
000111110
001101101
000011011
111110010
001100110
011000011
111111111
001110011
000101101
111100000
001001001
111011100
111010110
000010001
010100101
001100001
000010100
001101111
000100011
000010100
001110000
111100001
111100101
001011110
010010010
100000000
001001101
111100001
111111010
000000001
111011101
000000011
010011110
100000000
000001110
000111111
111111010
000110010
000000000
001000111
111100011
100000000
001111101
111100111
001101000
001001110
111100000
100000000
000101110
111101010
000000000
111010111
000101001
010000010
010001111
010010100
001001010
010001101
000010110
000110000
000110111
001000110
111010000
000010001
010101011
000000110
001010011
000101001
111101100
000111111
100000000
111110011
000001010
000011111
000000000
000000000
011111111
011111111
000000000
000000000
000000000
000000000
000000000
011111111
011111111
000000000
111111110
000101000
000101100
000000001
000110001
000001000
111111000
000011101
000011000
000000110
111010010
111101010
000011000
111111010
000000100
100000000
111101110
001010010
111110100
111110110
000110111
000110100
111111100
001100110
111110100
000010001
000100110
100000000
000101111
100000000
110111110
000010111
100000000
000000111
111100001
000100101
111101101
000000000
111101100
111000100
100000000
111001100
000110101
100000000
111001000
111011101
001010110
001100000
000001100
111110011
001000010
001000011
111110000
001100111
001011111
000000100
100000000
000101000
111110011
100000000
010100010
100000000
001011000
111101000
111101111
100000000
001000100
111111011
000010010
000101010
111111110
000110110
111111100
010000110
001010000
111111010
000001011
000101011
000011001
111111111
100000000
001110100
111110000
100000000
000000100
110111001
111111110
001111000
010101000
001000001
001001100
000010111
111111000
000001110
000010011
100000000
001101100
000111100
001100111
111111100
000000100
000011100
100000000
100000000
001110111
000101000
111110101
000101001
100000010
000110101
001101000
001110011
000011000
000100110
100000000
001001010
111111001
000001100
111000011
111101110
111110010
001000111
000001110
000000111
100000000
111111010
000000111
000011101
100000000
100000000
000000010
000001101
000010111
000101001
111101010
000010011
000000000
111111000
100000010
000011110
000000000
000000000
000000000
000000000
000000000
001100100
000000000
000000000
000000000
000000000
000000000
000000000
001101000
000011101
111111010
100000000
100000000
000101110
111001100
111101110
000001110
100000000
111111001
111110010
000011000
100000000
111010101
000110100
000000100
111110010
111100001
001010111
000001110
000011101
000000100
000101110
000000011
111000010
000110000
100000000
111011101
111011010
111111001
000001101
000100111
111111010
111101100
001000010
000011011
000010110
111101111
000101010
000111001
000011011
001110000
111111001
100000000
000001110
001101010
000010110
100000000
100000000
000010110
000100010
000001101
000000000
001001010
001011010
111100101
111101011
100000000
111000001
111101000
000101001
111110010
111000001
100000000
111010000
000111110
100000000
111100111
000110010
110100110
000111111
100000000
111110101
111101111
001010000
001101001
001110011
001010100
001001010
111100011
111011110
000000001
111110011
100000000
111110001
111111010
100000000
111100011
000011101
000010101
001011100
000101110
111011100
000001000
100000000
001111000
001110011
110111001
100000000
111101011
111100001
111110110
111100001
000010010
000010001
111100011
100000000
111110011
111101011
111111101
001011000
001101100
100000000
000000111
001010101
100000000
111100001
111101000
111111010
000000000
010000010
111110011
111111001
100000000
000011101
001101000
111101011
001001010
100000000
100000000
010100100
100000000
100000000
111101110
000010001
100000000
000011000
111101111
000110010
000000000
000000000
000000000
000000000
000000000
000000000
000000000
000000000
011111111
011111111
000000000
000000000
010111111
111111100
010111100
001001000
011110100
000011111
111100011
111101111
111101111
111011000
110000000
001111111
110001100
011110010
000000000
010000001
000111000
010001011
111101110
000000000
000111000
110001000
010111011
111100000
000101100
001111111
111101000
000100011
101111000
001011100
100100011
111001100
110110010
000000000
001111000
010010000
100100000
101000011
111111100
011101100
011001000
010101100
001101000
001011000
100000100
100000000
010001100
100101000
100100000
011110010
000000011
111111100
100001000
001101000
000111111
000011110
110111111
111000001
000011111
101000011
011011110
100000001
001100000
011011110
100110000
000000000
000001000
101011111
010011111
011011110
000101001
000010000
000000000
000000100
001110000
000011111
010011111
100011111
111000000
101000000
110000000
110011111
000010000
000000000
010111111
010111111
011001010
000100011
110111110
001100100
000110000
000000100
000001110
011111111
100000010
111111100
010000001
110000010
001110110
111111110
000101011
011111101
100010101
100000010
011110110
111110011
011111111
011111101
011111001
011111001
100000011
011110101
011110000
011111000
001010001
100111100
011111101
100001011
100001001
100001111
010000001
000000011
100010000
000001111
101010000
100000010
010010000
110000100
011001110
111101111
101011111
101010000
001110010
110010000
100100000
100101111
011110100
011100000
001111111
100111000
000000000
000000000
010101010
001100100
000000000
000000000
000000000
000000000
000000000
000000000
000000000
000000000
111110101
000011100
000010010
111110011
001001010
111111100
000000000
111101110
111111101
111100101
000111111
111111001
001001001
100000000
110010111
111011100
100000000
000001000
111101000
110110000
000000011
000110001
000011100
000011000
000000011
001001101
111101100
000000011
000000111
010001100
100000000
111101011
000010010
000011111
111110011
100000000
111101111
000110001
111110010
111111100
111100001
000011111
110111010
000110100
111111001
000101010
110101100
111111001
000100011
111111001
111100011
111100101
010011011
111110101
000001111
100000000
010011101
111110101
000001110
111111101
111100111
111111111
100000000
000011001
100000000
001011010
100000000
111111101
001000110
111100011
001010100
111100100
000001000
000000011
001110001
111001000
001100011
110110111
111001110
111010010
000100111
001101101
010011011
000111000
000000011
000001000
111110001
111110010
000011111
111100100
000100010
000000000
001111010
001101001
000001101
100000000
110110100
111110001
001010100
100000000
111100100
001001010
111110010
000001010
000001000
001101000
111100101
100000000
000100110
000111000
111100111
001001110
110101111
111110101
010011011
100000000
000101001
001011011
111101111
111110010
100000000
111011010
000010110
010100111
010101000
010000101
110101011
000011000
110111101
111111101
100000000
010010000
000000100
111111001
001000111
001001010
111111000
111011100
111111100
111111010
000000000
000000000
000000000
000000000
000000000
000000000
000000000
000000000
000000000
000000000
000000000
000000000
000110111
100000000
001001000
111111110
100000000
111101111
111111010
111111110
100000000
000000101
111001100
111101101
001101000
111110011
001001110
000000000
000100010
000011111
010011010
111101110
111101100
000011111
000100101
111111110
000110110
111110101
000000111
001100100
111100100
000010111
110111110
111111110
111101101
100000010
111100111
000110111
111110011
111110100
000101001
001000010
001100010
111100000
111100010
111111001
000110111
111101101
111010001
100000000
111111011
111110101
111100110
111110010
000010110
001011001
000001010
000001100
100000000
111011110
111110010
000000000
000010000
111111100
111011011
111100100
111101010
100000000
111100110
000100110
111100111
000100101
001100001
111111011
111110011
111110110
111100000
001110011
111101110
000100000
001001010
111110011
100000000
111100111
111101110
100000000
001010100
001001000
011111101
100000000
111111111
000111100
111100010
000100011
100000000
000111000
010000010
100000000
111011011
111100001
111100001
001010010
000101011
000000010
111110000
100000000
111101000
001011111
011000001
001011110
100000000
111101111
111111011
111111100
111100100
100000000
000111010
111111111
001101110
100000000
000101001
001010101
111101010
111010111
000111000
001001001
000010000
000101100
111110110
100000000
100000000
001001101
111111001
100000000
100000000
001000001
111101001
000011000
111111001
111111011
100000000
100000100
011001000
000000000
000000000
000000000
000000000
000000000
000000000
000000000
000000000
000000000
000000000
000000000
100000000
000010001
000001011
100000000
000101001
000001000
000100011
100000000
111110101
000000000
000011111
111110001
111110110
100000000
000010100
100000000
111100101
111110001
111111111
110101001
000100010
001101111
000000000
000011100
111111111
001001010
000010001
111011110
010011010
111100111
100000000
111111001
001011000
000001000
100000000
111100100
111101111
111110110
111110001
000101001
111101010
111111101
110111001
111110011
111101011
000001010
110110000
000000110
000000001
111111100
100000000
100000000
111001001
111111001
000100111
100000000
111011100
111101011
000000001
111110010
111111101
000000111
100000000
010001001
111101011
111100001
111101010
111111000
111011101
111100000
001100010
100000000
001100001
111110110
000001110
100000000
111101111
110110110
100000000
100000000
111011110
111101011
111111100
111101010
111100111
111101100
000001111
111111001
111100111
100000000
111100100
100000000
111110101
111011001
111111100
111111001
110110000
111101110
111001110
100000000
111111001
111100111
100000000
010001111
000000001
111110110
000000001
000010001
000101101
000000100
100000000
110011110
100000000
001000101
111111101
100000000
000011011
000001110
000000001
111110101
100000000
100000000
000000100
111010011
000001011
111101111
001101101
000111000
111000101
100000000
100000000
111100011
100000000
100000000
111101111
111110011
111110001
111101000
111110001
000011111
000000000
000000000
000000000
000000000
000000000
000000000
010010110
001011010
000000000
000000000
000000000
000000000
111110100
001110011
111001111
111110101
000101011
111110110
111111000
111110000
000110110
000010110
001010101
111101010
111100001
000011000
111111001
111110000
111111111
111111000
100000000
001000001
000100000
111001110
111111000
000001110
100000000
001000100
111110011
111111001
001010101
100000000
001110100
000111011
111010001
000000010
000000100
111110000
000000111
111111001
100000000
100000000
111001001
000011010
000110101
111110101
100000000
100000000
000011110
000100110
000001010
000000100
001001111
001001010
000000000
100000000
000000111
111100110
111110000
001010110
000100101
100000101
111111010
000011111
001110100
111101100
000000101
010000101
000000001
111111010
000000110
111101101
100000000
111110100
000001101
111111010
000111110
111111001
000010000
111111011
100000000
000000101
000110111
000111100
001111100
001100111
111111111
100000000
100000000
111111010
000000100
111100100
001001100
000000111
000000110
111100100
100000000
111110101
001110111
001011100
000101111
100000000
100000000
111110011
111101100
111110010
000010110
111100001
100000000
111101110
011001010
100000000
000010100
100000100
000010100
001000100
100000000
000100000
111111000
010011010
111000010
111111010
000001110
001110001
111101100
100000000
111110101
111011110
111101001
111111100
111110100
111110101
000010100
001000000
000110000
111100011
111100110
111110010
100000000
100000000
100000010
100000100
000000000
010010110
000000000
000000000
000000000
000000000
000000000
000000000
000000000
000000000
000000000
000000000
111100101
000000011
001010001
010010110
000010110
000000000
010001100
010000110
000111001
001010101
000001011
001101111
111111111
001011100
001000010
010100111
001100110
000010010
001011100
010000010
000111000
110111101
001000011
000001011
001010011
111111100
001010000
111101000
111011010
001001100
001000101
001001101
100000000
001010000
010001000
000000110
000100010
000001011
001010100
000101011
001101101
111111010
001111110
000001110
111101011
000001101
001111111
000100100
011000000
001011011
001010111
001000010
111010010
001001001
111111001
010000010
000011011
001000101
001000111
010001100
001110011
000000011
001001110
110101111
001000000
010100000
111100111
001110001
000110111
001011010
001011010
000001011
000100100
001101101
100000000
010000110
111101111
010010000
010000101
001011111
100000000
100000000
111111001
010000100
010101111
000100010
111110010
001111010
111111001
000110001
100000000
100000000
100000000
010001111
000001010
000101110
010001000
111101100
010010011
100000000
000100100
001100110
010001100
100000000
000010001
000000000
001100101
011000011
111101111
000101001
010010010
111001001
010010110
000011001
100000000
001110110
010001100
001010001
000111011
000010100
010011011
111110001
001101000
111100100
000011001
111110011
111000010
000110000
001100011
010000101
010101011
100000000
000101010
001110110
010001011
000000110
000010100
001100001
000010110
000101010
000000000
000000000
000000000
000000000
000000000
000000000
000000000
000000000
000000000
000000000
000000000
000000000
000011101
000010011
001000110
001100001
111110101
000111101
000011010
000010010
111101111
111111111
111011011
111101110
001111100
000101100
111110110
001011000
000010001
111101010
000000010
111111010
000000101
000101100
111110101
000011000
001101010
000010100
000000100
100000000
000111011
010001011
000111000
000101110
000010011
000000010
000101100
111110101
000010001
111110000
010000110
000110101
001101011
000111000
111101001
000111110
000101011
111111100
111011010
100000000
111110000
001010010
000000010
000001100
000010111
000001101
001000010
000001010
000100110
000100110
000010000
000110001
111110010
111111000
111011011
111100110
000000010
000000100
111111000
111111111
001001000
111111000
000000100
100000000
111111110
111101100
111110000
000010111
001001001
111101100
100000000
000010001
111101000
111110000
111101110
111101111
000000101
001000010
111111010
100000000
111110010
001010000
111101010
000010110
000000010
000000010
111111010
000010010
111010111
000011000
111111100
111111110
000000111
111111010
000110111
000101000
111111011
111101101
111110101
111111000
100000010
000000111
111101101
000000100
000110001
111100010
000001110
000000111
000101011
111111001
000110101
111101110
111101101
111111001
000000110
000111100
000110101
001010000
111111010
100000000
000010011
000001101
001000111
111110010
000001100
000001100
111101101
000000111
111101110
111111001
000000010
100000100
000000000
000000000
000000000
000000000
000000000
000000000
000000000
000000000
000000000
000000000
000000000
000000000
111011110
111101110
000010001
000001110
000010010
111111010
111000111
111101011
000110100
000110000
000101001
000000111
111100111
111111100
001011000
111010101
001010111
000000100
001000110
110101011
111110001
000110000
111111010
111101100
000011111
111011010
111100001
010101111
100000000
111100000
111111010
000100010
000111000
111110011
111101011
000000111
000000111
111101000
000011111
001001101
111111000
100000000
110111010
001010011
010100100
001101111
110100100
111101110
100000000
000110101
111101000
100000000
111001001
111111101
111100000
111010010
111100001
000001110
100000000
000100100
000110101
111110011
111110001
001100010
000011100
111010010
001111000
111111000
111011101
111101011
111001011
111101010
111010011
111101010
000101101
110111110
100000000
111000000
100000000
111001110
111101111
000001011
000010101
111101011
111111001
000011011
111110010
001000111
010010000
100000000
111101011
111111010
111111100
111011101
100000000
001000000
110111011
001101010
110111001
100000000
000001011
111101110
111111111
010001001
111111100
100000000
001000011
111111111
100000000
000101001
111010011
000101110
110110011
000101011
000011101
111011010
111111100
111101010
100000000
000101011
111110110
100000000
111101100
111010010
000001000
111010111
001101111
111011100
111000111
111110001
111110101
111101011
100000000
000000111
111011110
111011100
001111010
111101111
000100110
111110010
011111111
011111111
000000000
000000000
000000000
011111111
000000000
000000000
000000000
000000000
000000000
000000000
111111011
001100100
001011110
000010011
000101010
000001100
000000010
100000000
000011110
111100100
000111110
111101100
111100011
000001010
111110101
000100010
111101111
001101101
100000000
000010010
000010110
000110001
111110000
000110110
000000001
000101100
000011110
100000000
001110000
111011000
001110010
000011000
111010111
000000000
000110110
001100000
111101100
000000001
111100001
111000011
111010000
000011001
111101100
111101111
111001110
111100000
000011010
000110010
111101110
111111001
000110000
000101011
000001101
001100000
000000101
111110000
000001011
000101010
000010011
100000000
000000101
000010011
001010110
111100011
000001000
000101110
001000011
100000000
001001001
000010011
100000000
111111111
000101000
001100000
001001101
111110100
000010110
111110100
000000000
111110000
100000000
001100001
111111100
111110010
000000110
110111010
100000011
001001110
111101000
111110100
001001101
000100110
111111111
000010000
000001010
100000000
001110100
000111000
001001010
111101110
111111110
000001101
111101100
111110011
001101110
000000110
100000000
000111010
000100011
001111000
000111101
001001000
000110110
111111011
111101111
111111001
100000010
111111010
110111101
111101101
111110011
001010101
000101011
000010001
111111000
000110100
111111010
111111111
111111011
111110011
000010110
001010010
000001101
111100001
111100110
111110101
000000000
111111000
100000101
000011101
000000000
000000000
000000000
000000000
010010110
000000000
000000000
000000000
000000000
000000000
000000000
000000000
000111100
111101111
000101010
100000000
111111000
000010001
000001101
111011110
000100110
000110000
100000000
100000000
111101111
100000000
001000010
000000100
001100011
100000000
000110001
001101100
111101111
110111101
000001010
111101110
000100010
000001010
000100111
010101110
111101011
100000000
100000000
001000000
111011010
000000001
100000000
111110011
000001110
111110001
100000000
111110010
000100011
000011000
001010011
111101110
001110000
111111000
010001001
000101110
100000000
000011101
111110010
000011001
111110010
100000000
111011110
001010111
100000000
100000000
100000000
000000100
000110101
111101010
111110010
110110010
100000000
111001100
000011001
100000000
111010101
000001010
000000110
000100010
111011101
111101010
100000000
000001010
111111010
001110100
000101110
000001101
100000000
100000000
000001111
100000000
100000000
111100101
001110100
000010001
001101101
111110110
111101110
100000000
111110101
111010011
100000000
100000000
001111011
111110101
111000111
100000000
111101111
111100011
100000000
100000000
111111010
111011001
000011011
000000001
000000110
000001111
000011011
111010101
001011111
001001010
000001000
000110000
000000001
000011000
111101100
100000000
111110001
000011000
111111000
111011100
000011111
111100100
111110101
111101100
000101110
100000000
100000000
111111101
100000000
100000000
111101000
111011101
001000111
111110110
100000000
111111100
011011101
011001011
011000010
010111110
011111111
000000000
000000000
000000000
000000000
000000000
000000000
000000000;
