memory_initialization_radix=2;
memory_initialization_vector=1111000111011111001111110111101110101110100001110110111100111111110111101000100000100110010100100001101111101101001000110111001101111100101111000011000111011111010111000001110100010001111000101100001100111011001111110100110111000111001001111001011111101011
1101001011100111111110010100000111010001011011110001011100100111101110100011110110010010010010000000100101010001010111110101111101111111110001000110100011011111111111010011100101111100100011100010111100010111010111111100100110000111000000000111101001111110
0001111011101000010010000110000000001111000101001111101111101110011110101011000100010010001101110000010001001001101010101101111000000101101110011000010000111101100010000000101101100001111011111101101011101110011100111001000000001100000110010010100001101111
0100000111010100110011110111010001000010010100001100111100110111110000000001010111011101111111001111110010111101100111111011111110111111011110001000101111101001100100010111100000111100111111100010111111111100010101111000111110101100110100101000110000100001
0000000000000000000011101001011111101111110010111101100111101100010001011011110010100110000000000011011110110111110111010010000000000110111110100110001101011101010011111010111101110111110001111101011000000011111101000111110011011100100111011101111011101000
1101100010110010010011001011001111011010110110001111111110100001011111001101111110010100000000110110111111111101100010111000100011111001111000011110111110010000100001000000011111111000100010011111000100111000100100001011111010001001001110111010011000111111
0100011111100011010000110011101110000000000011101110100010000111101111110001100100110100000001011110001110000100010111101101011110100100110001110001010000111100110001000111101100111100001111011011011010110111101001100011011000000010010001111000000010011110
1111000100010000101101111011101111010000000001111000011110010010111000010100010001011000011010001110011000011110001001111110001001000000100001001111000010000011001101000000000010100001000100011111011110010000101101011010000010001111010111000100111101111010
0000110001001100111101100100000000110111000000001110100010101111010101111011100111101101111011101111100101000100101000011001111110010111111000100011101001101110010011010100011011111111000100011010001001100000000011100010011111100100000000010100001101000100
0000000000000000000000000010010001101000001001100000000111101000111110010110001010010001100100011101000001011011111000100010101010001100100000000100010110010001011100001000100100011100000110111101101110001100101000100011100111011110101111001100000000011110
1000100011001100010011001101111010000111111111100100001001000010100100001010111001011000001111111011000100011000000000011100010011000101100100010011111010111001000001111010011001101110000101110100001100100010100110111010110100011100011000001001010100011101
1100110100100000110000110110001100111110001100110101010001010100100100010001101010010010000011001100000000010001011000110011100000101110001101000111000010000111100101101010000110100000011111111010011101011010000000110000101111111101100100111010001101110001
0110001101011000001111111100001111011010000101110001101111000010010010100011000100100001110001000011100010101101000011000001111111101111111000011100000011011000010010010101011000010010011000101000100011000011010011110111000000001101111001111101011111111011
1000111100001001001000111111001110111100110100001001001110101100010101100011101111010001000001010111010100100011010100011010000101011000101010100011011100100101100100011011100010111101011001000000100011000010110100111110101100001101100000011000001001100001
0000000000000000000010001100100011010010001100011101111011110001111111111100000000110001011010001011001000001000011100111101111000011101010001101111110010100010101010001010100110111011111100100101010011111000110001010001000011110000100011101110110000111011
0101111110110100010010100010010010011111010001101111110111100001010000010110100000000110101000000101001000100100111011001001011010100011000001111010100011001100010100010110010100001110001101000000101001111111100110101111100000101111000111100010110010010110
0100010000011110100110110010001110011101111010001110100111000110010000000000010110010010100001110001000100011110001110001110100101011010001100010001011001000000010001010001110110110000110011110111100000010111011010110001000010000100100110111100011110010001
1111110111100101001101000110110001001011110000111111001100001011101000010010100100011000100000001110011000011010100010001000011100001010110000001011000010101111110011000000010111111111000011100100010001111000101000001110011101001000000001111010001000011100
0000111000000010100000000000110011100001111111100011111011000001010101000100011111100101000111111111011011000000111000100101111111010000010010000101110100100001100100001111110010011110100100011001000101110100010011010111001000100001100000011100001111111011
0000000000000000000000111101111111101000010101010001011100010001111111111011110000100000011010001011010001111100100011100100100110001101000010000110001101111110000000001001110001111001100111011100101100011111011111110010000111101010011111001010100101111010
0101100010111111101110100010000100001000011111111011111111111001110100001000001000101100000000110110001000000100111100101100010001010100011100010001010010011100010100100010101011110000100010111010011000111100111111011101111101001100011000100010101100011011
1110001100001100111101111101001101110001011010001111110001010100101010110001100100010010110010000010001101101001011011110010110001110100101001111100000010000111101110110010000111101110111110000100111011111011110110010000111010000111110001100001001000100011
0111111001001000010000111010111000110000011001111111100111110111000000001101000100100011111011000010100000001101000010110100101011000001110000111111111100111000010011111000111000010110101011011000100000001111011101100001000000000100011101000101010010100001
1110100100000110000010101100000000001100111110111110100010101111011111000000001111101001100100011000110110100011110100011100001010111111101000000010000000101011111101000100100001000001101011111111100011010000011110100001101011110000000100111100001111100001
0000000000000000000010001110000010100011111101100100101010001011100101110000000100111101100111111100110010000010001101000101010100010100111111010000000101110001101110001001100001000110001100101101011100000101100001111011110010010000011001110101010000111000
0100000111101100010001000001111100001110100001001011111111011111111111000001100000100001000001100001010000100110000010101111001011100010110001111111100011001011111111100011000100010001011111111100001110010110010111100010100000011001110001100010110100011010
0001000010001010000000000100011001001100100110001100111111010010001110000101101010010010100010011010001101010001101001011001110001101110001110101000111111100100010001001001001110110000110001111111110000100011001110100100101110000110110001100110001101001110
1011000011011101010011000111000111111111000100110001101001111010010001110010001100101000010110101010011000011010000011011000100000101111101000011100001110001111100001000000010000011111000011110111111111000011010010001001101011001000000000101110101000101000
0001001010111001100000001000011001100001100010010011111010110100010100000000001001011110111101100100011011001101100100011011100100001000101110100011100001010000000000111100100000100011110100011110011111111100010101000011000100001011011001100001010010100001
0000000000000000000001011000110001101000011101111101010100110110010001100100100011100010000011110111100001001110001110110010000000110101000001011111111101100000101010001010010001101000010111110001010001011010011101000000000100011110100010000000101111111110
0101011111011001000000100001110000000000100001101100001010011111111011111111110011100100000000001010101100010011001010111000001011111100010100001110010010001100010011010010101100001100100010001011111111100010000010011000111001111100011000001110001100011110
0001101000000111010001000000000001111100100101011010110001011011111010110001011101001010010010000111111011110001100010001011101011110110001101110001001101000010111100010010000101001001000110000110001111111110000000110000111100100111010001101100000101110001
1001000100101000001111110101011000101110111111111000100100011000001000010010010101110000111101000100000110010111000010100001100011000010000111111111000010010001111111111000011000011100000011101000011000111111111000001100100001101000000001000101010011110001
1101011100001011011111101100000000001100100100001111011111111111001000100011010111110000010011100100011011100011010010011010100100000100011110000100011100100100001010111111101111111100010100011101100011000011110111100010001000000001100000101011101001001000
0000000000000000000010001110101111111110001011000100000010001000101000011110001100000011011000001100000001011011111100110001110010001110101011011111111110100000011011111001010001101110001010100011101010001100001110111111011101000000011111100111010000110101
0100100010100011101101010000011100001110111110001100001111100001000011111111011111111110101100100001010011001001100011101010000011001000010111011010100011101001111110100010100001101001100010110100001111011111111100001101011100110001001110100011000010010000
1111111110001001101000000000001011100100111010001110101001100010001111100100010000000110001010001010001110000100010110001110110001101001011001010001010110001001001110111011100001010000100001111111110000100001111111110000111010000101001101110010001100011111
1110011111101000001011000111000000100101000101000111111111000011100011010001111110000011010000010010011000010110111111111000011110001011111000100100111111111000010000101001001111110111000100000010001001000011000111111111000000010101010001110100101000011100
0000101011111111100000011011011101100010001001101110100010011011111111111111011100011000000001010011000011111110110100011100010110000111110110100011011001001101100100010001010110000000011111111101100011100111011101011111111100001010111111010100010010011111
0000000000000000000010001011110010000001111111110001101100011010010001100101010000110001101000010000000010011100100111000100011110001100010001101101111111100101000000001101100011110010001011010001011000101011010001011101111111100000111100101101111110111110
0111001000011100001111010010111010000001100001001111010110100000110100000101011111111011111111111101111100011000010100101100010000001111100000011100100011000100010111001001001100001111001011100100001100100010001011111111100000100011011100111111010100100000
0001100001111111110000111000100000010001011000111001011100111001101100010001101111110110011110001001010011110001100001000010010001101110001110101001111010000111110001000101101100110000110110000101001111111110000000001111111110000101010001110101001100010001
0110111111110001101011000110111000100101110110101000100100111111111000010100001100111110000000010000010010010101000010100111111111000000100001011101000010110111111111000000010110001110000111101000010110000000011000000100111111111000000000110101011110011001
0110011100001011011111111100000000011111111100001111001011111100011000011111111111011011000100000100011010010110100100011000100100000010110110100011101100100101000111110100100001000100101111100111111100011100010111100010000011111111110100101010000111100001
0000000000000000000010001110010001101010001100101111111110001011001001101010001001101101101010001010100010101111110011100010100000011110110001110110001101101110000100001011100010011000100010010001100010001110000001010010000100101111111111001001101101000111
1000100010101000100110100010010001011011010011111100001100110111100100000101100000100011111111011111111000110110100011001010110011100011000010001010000100100100010110100011000001001101100010100000110010100010101100001010011111111100010110011111111000001110
0001011110001001101111111110001111001010111011110100100111101010001110001011000010010010110010001010001111001001011010001011100100101000010101010001000101001111110001000110000111101100111110000100110000101101111111110000111001111111110001110110001101101000
1001000011110111111110100110111000100101000101111111000001000010110111111111000101100001010110000100000001011100001111111000011000111111111000011110000111101000010000111111111000010000100011010001110101000010111111000101000000000111111111000101100110100001
1111111100001010100000000011111111100001110011111111100010100001001101100011010011111111100100001010100100100011010010100001100100011100100001010101111100100001100011111000101000100100011111111110100011101111001111100001110100001011011111111100010000010011
0000000000000000000000111101110001101010001101010001100101111010110001011101000101010001100001101110110001101000101111111101111100011001000011011010001100110001011101111110100000001000000111000101100110001100110001010000000001010000011101111111110000111001;
